/**
 * Auto-generated TFLite model data.
 * Architecture: 9 -> 16 -> 8 -> 4
 * Total weights: 332
 *
 * Generated by: tflite_model_manager.py
 */

#ifndef MODEL_DATA_H
#define MODEL_DATA_H

const unsigned int g_model_data_len = 3532;

alignas(8) const unsigned char g_model_data[] = {
  0x1c, 0x00, 0x00, 0x00, 0x54, 0x46, 0x4c, 0x33, 0x14, 0x00, 0x20, 0x00, 
  0x1c, 0x00, 0x18, 0x00, 0x14, 0x00, 0x10, 0x00, 0x0c, 0x00, 0x00, 0x00, 
  0x08, 0x00, 0x04, 0x00, 0x14, 0x00, 0x00, 0x00, 0x1c, 0x00, 0x00, 0x00, 
  0x98, 0x00, 0x00, 0x00, 0xf0, 0x00, 0x00, 0x00, 0x40, 0x07, 0x00, 0x00, 
  0x50, 0x07, 0x00, 0x00, 0x68, 0x0d, 0x00, 0x00, 0x03, 0x00, 0x00, 0x00, 
  0x01, 0x00, 0x00, 0x00, 0x10, 0x00, 0x00, 0x00, 0x00, 0x00, 0x0a, 0x00, 
  0x10, 0x00, 0x0c, 0x00, 0x08, 0x00, 0x04, 0x00, 0x0a, 0x00, 0x00, 0x00, 
  0x0c, 0x00, 0x00, 0x00, 0x1c, 0x00, 0x00, 0x00, 0x3c, 0x00, 0x00, 0x00, 
  0x0f, 0x00, 0x00, 0x00, 0x73, 0x65, 0x72, 0x76, 0x69, 0x6e, 0x67, 0x5f, 
  0x64, 0x65, 0x66, 0x61, 0x75, 0x6c, 0x74, 0x00, 0x01, 0x00, 0x00, 0x00, 
  0x04, 0x00, 0x00, 0x00, 0x90, 0xff, 0xff, 0xff, 0x0a, 0x00, 0x00, 0x00, 
  0x04, 0x00, 0x00, 0x00, 0x08, 0x00, 0x00, 0x00, 0x6f, 0x75, 0x74, 0x70, 
  0x75, 0x74, 0x5f, 0x30, 0x00, 0x00, 0x00, 0x00, 0x01, 0x00, 0x00, 0x00, 
  0x04, 0x00, 0x00, 0x00, 0xa6, 0xf8, 0xff, 0xff, 0x04, 0x00, 0x00, 0x00, 
  0x0c, 0x00, 0x00, 0x00, 0x6b, 0x65, 0x72, 0x61, 0x73, 0x5f, 0x74, 0x65, 
  0x6e, 0x73, 0x6f, 0x72, 0x00, 0x00, 0x00, 0x00, 0x02, 0x00, 0x00, 0x00, 
  0x34, 0x00, 0x00, 0x00, 0x04, 0x00, 0x00, 0x00, 0xdc, 0xff, 0xff, 0xff, 
  0x0d, 0x00, 0x00, 0x00, 0x04, 0x00, 0x00, 0x00, 0x13, 0x00, 0x00, 0x00, 
  0x43, 0x4f, 0x4e, 0x56, 0x45, 0x52, 0x53, 0x49, 0x4f, 0x4e, 0x5f, 0x4d, 
  0x45, 0x54, 0x41, 0x44, 0x41, 0x54, 0x41, 0x00, 0x08, 0x00, 0x0c, 0x00, 
  0x08, 0x00, 0x04, 0x00, 0x08, 0x00, 0x00, 0x00, 0x0c, 0x00, 0x00, 0x00, 
  0x04, 0x00, 0x00, 0x00, 0x13, 0x00, 0x00, 0x00, 0x6d, 0x69, 0x6e, 0x5f, 
  0x72, 0x75, 0x6e, 0x74, 0x69, 0x6d, 0x65, 0x5f, 0x76, 0x65, 0x72, 0x73, 
  0x69, 0x6f, 0x6e, 0x00, 0x0e, 0x00, 0x00, 0x00, 0x4c, 0x06, 0x00, 0x00, 
  0x44, 0x06, 0x00, 0x00, 0x14, 0x06, 0x00, 0x00, 0xf4, 0x05, 0x00, 0x00, 
  0x64, 0x05, 0x00, 0x00, 0x54, 0x03, 0x00, 0x00, 0x04, 0x01, 0x00, 0x00, 
  0xb4, 0x00, 0x00, 0x00, 0xac, 0x00, 0x00, 0x00, 0xa4, 0x00, 0x00, 0x00, 
  0x9c, 0x00, 0x00, 0x00, 0x94, 0x00, 0x00, 0x00, 0x74, 0x00, 0x00, 0x00, 
  0x04, 0x00, 0x00, 0x00, 0x5a, 0xf9, 0xff, 0xff, 0x04, 0x00, 0x00, 0x00, 
  0x60, 0x00, 0x00, 0x00, 0x10, 0x00, 0x00, 0x00, 0x00, 0x00, 0x00, 0x00, 
  0x08, 0x00, 0x0e, 0x00, 0x08, 0x00, 0x04, 0x00, 0x08, 0x00, 0x00, 0x00, 
  0x10, 0x00, 0x00, 0x00, 0x24, 0x00, 0x00, 0x00, 0x00, 0x00, 0x06, 0x00, 
  0x08, 0x00, 0x04, 0x00, 0x06, 0x00, 0x00, 0x00, 0x04, 0x00, 0x00, 0x00, 
  0x00, 0x00, 0x00, 0x00, 0x0c, 0x00, 0x18, 0x00, 0x14, 0x00, 0x10, 0x00, 
  0x0c, 0x00, 0x04, 0x00, 0x0c, 0x00, 0x00, 0x00, 0xb2, 0x01, 0xdb, 0xb3, 
  0x32, 0x92, 0x2a, 0x9c, 0x02, 0x00, 0x00, 0x00, 0x02, 0x00, 0x00, 0x00, 
  0x04, 0x00, 0x00, 0x00, 0x06, 0x00, 0x00, 0x00, 0x32, 0x2e, 0x32, 0x31, 
  0x2e, 0x30, 0x00, 0x00, 0xc6, 0xf9, 0xff, 0xff, 0x04, 0x00, 0x00, 0x00, 
  0x10, 0x00, 0x00, 0x00, 0x31, 0x2e, 0x35, 0x2e, 0x30, 0x00, 0x00, 0x00, 
  0x00, 0x00, 0x00, 0x00, 0x00, 0x00, 0x00, 0x00, 0x78, 0xf4, 0xff, 0xff, 
  0x7c, 0xf4, 0xff, 0xff, 0x80, 0xf4, 0xff, 0xff, 0x84, 0xf4, 0xff, 0xff, 
  0xf2, 0xf9, 0xff, 0xff, 0x04, 0x00, 0x00, 0x00, 0x40, 0x00, 0x00, 0x00, 
  0x99, 0xf5, 0x2a, 0x3f, 0xfe, 0x27, 0x17, 0xbe, 0x67, 0xb5, 0x26, 0x3f, 
  0x45, 0x13, 0x0a, 0xbf, 0x23, 0xd9, 0xeb, 0x3e, 0xd5, 0x23, 0x91, 0x3e, 
  0x67, 0x0d, 0xa2, 0xbe, 0xd4, 0xee, 0x11, 0xbf, 0x76, 0xa9, 0x89, 0x3e, 
  0xe2, 0xca, 0xd9, 0x3e, 0x28, 0x0a, 0x04, 0x3f, 0xad, 0x15, 0xed, 0xbc, 
  0xe7, 0x19, 0x5b, 0xbd, 0xb6, 0x81, 0xef, 0x3e, 0x95, 0x10, 0x2c, 0xbd, 
  0xc4, 0xd1, 0x4d, 0x3e, 0x3e, 0xfa, 0xff, 0xff, 0x04, 0x00, 0x00, 0x00, 
  0x40, 0x02, 0x00, 0x00, 0xd2, 0x8e, 0x57, 0x3f, 0x40, 0xdd, 0x68, 0xbe, 
  0x60, 0x74, 0x01, 0xbe, 0x4e, 0xb7, 0x06, 0x3f, 0xd6, 0x90, 0xb8, 0xbd, 
  0x36, 0x1f, 0x57, 0xbd, 0xfd, 0xa4, 0x0a, 0xbe, 0x9b, 0xaf, 0x42, 0xbe, 
  0x7b, 0xf4, 0xc6, 0xbe, 0xac, 0x8e, 0x04, 0xbe, 0x54, 0x37, 0x9b, 0xbe, 
  0xf3, 0xaf, 0x05, 0xbe, 0xb2, 0x63, 0xa7, 0xbe, 0xa3, 0xad, 0x8a, 0x3d, 
  0xed, 0x47, 0xda, 0xbd, 0x94, 0xdb, 0xce, 0xbe, 0xb6, 0xf6, 0x9e, 0x3d, 
  0xb5, 0xde, 0xaf, 0x3d, 0x8f, 0x1d, 0x3a, 0x3f, 0x0f, 0xb4, 0xc6, 0x3e, 
  0xba, 0x31, 0xfd, 0x3c, 0xc6, 0x86, 0x36, 0xbf, 0x0e, 0x6a, 0x17, 0x3e, 
  0x7d, 0x94, 0xa9, 0x3e, 0x1b, 0xa1, 0xbf, 0xbe, 0x1c, 0x26, 0xa2, 0xbe, 
  0xc0, 0x3f, 0xa5, 0xbe, 0x57, 0x08, 0x13, 0x3f, 0x44, 0x85, 0x70, 0x3f, 
  0xbd, 0x18, 0xd2, 0xbe, 0x9b, 0xae, 0xbc, 0xbf, 0x29, 0x76, 0xf4, 0x3c, 
  0x69, 0x02, 0xad, 0xbe, 0x9a, 0xb6, 0xe7, 0x3e, 0xbd, 0xe5, 0xb2, 0x3e, 
  0x8d, 0x43, 0xd5, 0x3e, 0xdd, 0x7a, 0x5d, 0xbe, 0xc9, 0xff, 0x7c, 0x3e, 
  0x5c, 0x90, 0xa8, 0xbf, 0xc1, 0x00, 0x90, 0x3f, 0x0f, 0x0f, 0x09, 0xbf, 
  0x4e, 0x42, 0x03, 0xbf, 0x88, 0xf7, 0xcc, 0x3e, 0x03, 0xb0, 0x81, 0x3e, 
  0x87, 0xa8, 0xa2, 0x3d, 0x04, 0x20, 0x74, 0x3f, 0x16, 0xa3, 0x3e, 0xbe, 
  0x9a, 0xec, 0x9f, 0x3b, 0xe9, 0x61, 0x52, 0x3f, 0x91, 0x7f, 0x5e, 0xbe, 
  0x60, 0xae, 0xc5, 0xbe, 0x3e, 0x5e, 0x48, 0x3e, 0x90, 0x30, 0x5c, 0x3e, 
  0x0a, 0xa3, 0x19, 0xbe, 0x7e, 0xe3, 0xc7, 0x3e, 0x9d, 0x80, 0x8a, 0x3f, 
  0x23, 0x2c, 0x34, 0xbf, 0xcd, 0x56, 0x7e, 0x3d, 0x26, 0x52, 0x9a, 0xbc, 
  0xc0, 0x77, 0x39, 0x3f, 0xd5, 0xe7, 0x6a, 0xbe, 0x81, 0x43, 0x88, 0xbd, 
  0x0d, 0x6f, 0xb6, 0x3d, 0x58, 0x8d, 0xf5, 0x3e, 0xda, 0x01, 0x80, 0x3f, 
  0x8b, 0x6f, 0x38, 0x3f, 0xbf, 0xf1, 0x23, 0x3f, 0x31, 0xb1, 0x01, 0xbe, 
  0xdb, 0x8b, 0x94, 0xbe, 0x68, 0x5d, 0xeb, 0x3e, 0x1d, 0x76, 0xff, 0x3d, 
  0x5e, 0x63, 0xef, 0xbe, 0x4d, 0xf3, 0x8e, 0xbe, 0x44, 0x89, 0x9e, 0x3e, 
  0x6c, 0x95, 0x60, 0x3c, 0x7c, 0xed, 0xb5, 0xbe, 0x37, 0xfd, 0xc5, 0x3e, 
  0x3a, 0xcd, 0xda, 0xbe, 0x41, 0xd6, 0x8b, 0x3e, 0xcf, 0xc0, 0xa8, 0x3d, 
  0xdd, 0x09, 0xe6, 0x3e, 0xaf, 0xb3, 0xc5, 0x3e, 0xc6, 0x69, 0xc4, 0xbe, 
  0x44, 0xdb, 0xd1, 0x3d, 0x99, 0xbc, 0x49, 0xbe, 0x6e, 0x6d, 0x81, 0xbe, 
  0x93, 0x72, 0x27, 0xbe, 0xb2, 0x9b, 0x59, 0x3e, 0xb8, 0x57, 0x16, 0x3e, 
  0x85, 0x0a, 0x8e, 0xbc, 0x06, 0xb9, 0x17, 0xbf, 0x1c, 0x78, 0xb5, 0xbb, 
  0xa2, 0xd0, 0x0a, 0x3f, 0x6e, 0x6a, 0xa8, 0xbe, 0xe1, 0x29, 0x06, 0xbf, 
  0x2f, 0x8b, 0x47, 0xbf, 0x19, 0x39, 0x4b, 0xbd, 0x47, 0x77, 0xd0, 0xbe, 
  0xf5, 0xd5, 0x8d, 0x3e, 0x9b, 0x00, 0x43, 0x3d, 0x61, 0xc4, 0x26, 0xbf, 
  0x14, 0x77, 0xb4, 0xbe, 0xe2, 0x02, 0x82, 0xbf, 0x07, 0x23, 0x76, 0x3c, 
  0xf3, 0x93, 0x91, 0x3f, 0x45, 0x83, 0x64, 0xbe, 0x91, 0xf1, 0xa8, 0xbd, 
  0x58, 0x53, 0xd1, 0xbe, 0x6e, 0xa5, 0x57, 0xbe, 0x6d, 0x3c, 0x50, 0xbe, 
  0xa8, 0xc5, 0xea, 0x3f, 0x95, 0x45, 0xd1, 0x3e, 0x1c, 0xf0, 0xbd, 0xbe, 
  0xe9, 0x28, 0x3f, 0x3e, 0xf2, 0x78, 0xca, 0xbe, 0xb6, 0xf3, 0xe5, 0xbe, 
  0xf1, 0x2b, 0x56, 0xbc, 0x38, 0x31, 0xf4, 0x3e, 0x6b, 0x29, 0xc0, 0x3d, 
  0x35, 0xd0, 0xc0, 0x3e, 0xd7, 0x84, 0x14, 0xbd, 0x70, 0xce, 0xf8, 0x3d, 
  0x17, 0x0d, 0x85, 0xbe, 0xb6, 0xf7, 0xc9, 0x3e, 0x20, 0xf0, 0xc0, 0xbb, 
  0x23, 0x2d, 0x15, 0xbc, 0xc2, 0xa5, 0x63, 0x3c, 0xc5, 0x92, 0x72, 0x3e, 
  0xdf, 0x50, 0x38, 0xbd, 0x07, 0xb3, 0xb9, 0xbd, 0xeb, 0x1b, 0x98, 0xbd, 
  0xfd, 0xa4, 0x0c, 0xbf, 0xcc, 0x7a, 0x31, 0xbd, 0xab, 0xb3, 0x2a, 0xbe, 
  0x66, 0xa3, 0xdb, 0x3e, 0xa8, 0xfd, 0x1c, 0xbf, 0xc1, 0xe0, 0xa6, 0x3e, 
  0x18, 0x0a, 0x38, 0xbd, 0x18, 0x05, 0xd1, 0x3d, 0xb9, 0x52, 0xa3, 0x3e, 
  0xb0, 0x75, 0xcd, 0x3e, 0x9c, 0x4f, 0x95, 0xbe, 0x97, 0x53, 0xb2, 0xbe, 
  0x70, 0xee, 0x8f, 0x3d, 0x8a, 0xfc, 0xff, 0xff, 0x04, 0x00, 0x00, 0x00, 
  0x00, 0x02, 0x00, 0x00, 0x06, 0xd8, 0xc7, 0x3d, 0xbc, 0x3f, 0xa2, 0xbe, 
  0x51, 0x6a, 0x03, 0xbf, 0xf4, 0xf9, 0x40, 0xbe, 0xae, 0x2e, 0xc3, 0x3e, 
  0x98, 0x87, 0xf4, 0x3e, 0x27, 0xbf, 0x81, 0xbe, 0x54, 0xc3, 0x38, 0x3f, 
  0xc1, 0x39, 0xc3, 0xbe, 0x3e, 0x95, 0x3b, 0xbe, 0x68, 0xb3, 0x0a, 0x3d, 
  0xb5, 0x15, 0x39, 0x3f, 0xd8, 0x9b, 0x8e, 0x3f, 0xd5, 0xe8, 0x55, 0xbb, 
  0x97, 0x8b, 0xa4, 0x3e, 0x88, 0x4c, 0xe1, 0x3e, 0xdc, 0x0f, 0x78, 0xbe, 
  0xfc, 0x8d, 0xe6, 0x3d, 0xe7, 0x55, 0x47, 0x3f, 0x90, 0xbd, 0xa5, 0x3f, 
  0xd9, 0xd0, 0xaa, 0x3f, 0x13, 0xf4, 0x97, 0xbd, 0x46, 0x0a, 0x82, 0x3f, 
  0x6d, 0x8e, 0x95, 0x3f, 0xea, 0x92, 0x85, 0x3e, 0x4a, 0xb6, 0x72, 0xbe, 
  0xdf, 0xfd, 0x8d, 0x3f, 0x7d, 0x79, 0x71, 0x3f, 0x3b, 0x72, 0x90, 0x3f, 
  0x5f, 0xed, 0x08, 0x3d, 0x46, 0xb2, 0x27, 0xbe, 0xed, 0xf5, 0xae, 0xbc, 
  0xe0, 0x11, 0x55, 0xbd, 0x7b, 0x13, 0xc3, 0xbe, 0x71, 0x01, 0x70, 0xbe, 
  0xac, 0x91, 0x25, 0xbe, 0x36, 0x5a, 0x10, 0x3f, 0xb5, 0xdd, 0x84, 0xbd, 
  0x6d, 0x6f, 0x97, 0xbe, 0xda, 0x3a, 0x18, 0x3d, 0xa9, 0xf9, 0x4a, 0x3e, 
  0x44, 0xf7, 0xf8, 0x3e, 0x82, 0xaa, 0xe5, 0xbe, 0x54, 0x8c, 0x09, 0x3f, 
  0x7e, 0xe1, 0x5d, 0xbe, 0xbb, 0x43, 0x32, 0x3e, 0x89, 0x5e, 0xde, 0xbe, 
  0x49, 0xf5, 0x85, 0xbe, 0xe8, 0x11, 0x23, 0xbd, 0x83, 0xe0, 0x21, 0x3e, 
  0x95, 0x9c, 0x01, 0xbf, 0x69, 0x73, 0x1c, 0x3c, 0x59, 0x34, 0xb1, 0x3e, 
  0x29, 0xea, 0xe8, 0xbe, 0x31, 0x5d, 0xb0, 0xbe, 0x8a, 0x3e, 0xaf, 0xbe, 
  0x92, 0x5c, 0x66, 0x3e, 0xfe, 0xd2, 0x02, 0xbe, 0xfe, 0x63, 0x59, 0x3e, 
  0x8f, 0xa9, 0x73, 0x3e, 0x90, 0x15, 0x7c, 0xbb, 0x55, 0x87, 0xb8, 0x3e, 
  0x13, 0x0e, 0x2d, 0x3e, 0x03, 0x5d, 0x63, 0xbe, 0x85, 0x97, 0xe0, 0x3a, 
  0xc9, 0x00, 0x28, 0xbe, 0x19, 0x91, 0x48, 0xbe, 0xed, 0x2b, 0xff, 0xbe, 
  0xb1, 0xc0, 0x73, 0x3f, 0x9d, 0x85, 0xd1, 0x3e, 0xf8, 0xc5, 0xc9, 0x3e, 
  0x2f, 0xbe, 0x68, 0x3c, 0xa0, 0x33, 0xf5, 0xbe, 0xff, 0x20, 0x92, 0xbe, 
  0x3a, 0xb2, 0x02, 0xbe, 0x2a, 0x8c, 0xfd, 0x3d, 0x21, 0x78, 0x44, 0x3f, 
  0xd8, 0x7e, 0x02, 0xbe, 0x34, 0x30, 0x16, 0xbf, 0xfd, 0x11, 0xe6, 0xbe, 
  0x36, 0x90, 0x18, 0xbf, 0xbc, 0x76, 0x51, 0x3e, 0xca, 0x19, 0x9a, 0x3e, 
  0xe1, 0x7c, 0x85, 0x3f, 0x8e, 0x5c, 0xa7, 0x3e, 0x1d, 0x38, 0x25, 0xbf, 
  0x1d, 0x3c, 0xa3, 0x3d, 0x87, 0x87, 0xfc, 0xbe, 0x31, 0xec, 0xb0, 0x3e, 
  0x69, 0xc7, 0x15, 0x3e, 0x93, 0xe5, 0x84, 0xbe, 0xfd, 0x11, 0x92, 0x3e, 
  0x36, 0xcc, 0x0c, 0x3f, 0x47, 0x92, 0xd0, 0xbd, 0xc8, 0xef, 0xfd, 0x3d, 
  0xb8, 0x3e, 0x3c, 0xbf, 0xe3, 0x6c, 0x40, 0x3f, 0x4b, 0xe7, 0x5b, 0x3e, 
  0x42, 0xe9, 0xf7, 0x3e, 0x02, 0xf0, 0x1d, 0xbf, 0xe4, 0x13, 0x86, 0xbe, 
  0xc4, 0xaf, 0x66, 0x3f, 0x6f, 0x0c, 0xf9, 0xbe, 0x80, 0x27, 0x2f, 0xbf, 
  0x05, 0xfb, 0xff, 0x3d, 0x33, 0x19, 0xa2, 0x3e, 0x13, 0xee, 0x1b, 0xbf, 
  0x1f, 0xbb, 0x4b, 0xbf, 0xa1, 0x86, 0x77, 0xbe, 0x3c, 0x17, 0x86, 0xbd, 
  0x83, 0x68, 0x6d, 0xbe, 0x44, 0x86, 0xed, 0xbe, 0xf1, 0x7e, 0x26, 0x3f, 
  0xc7, 0x0d, 0x7f, 0x3e, 0xac, 0x00, 0xf3, 0x3e, 0xfc, 0xc5, 0x3a, 0xbf, 
  0xd1, 0xce, 0xc9, 0xbe, 0x4b, 0x73, 0xab, 0xbd, 0x1a, 0x14, 0x69, 0xbf, 
  0xde, 0x3b, 0xfa, 0xbd, 0x63, 0x9c, 0x7f, 0x3e, 0x68, 0xce, 0x26, 0x3f, 
  0xc0, 0x5e, 0x19, 0xbe, 0x89, 0xce, 0x2e, 0xbf, 0x8e, 0xeb, 0x1f, 0x3d, 
  0x46, 0x07, 0x1a, 0x3f, 0x4a, 0xb5, 0x19, 0xbf, 0xf4, 0x4d, 0xe6, 0xbe, 
  0x96, 0xfe, 0xff, 0xff, 0x04, 0x00, 0x00, 0x00, 0x80, 0x00, 0x00, 0x00, 
  0x04, 0x71, 0xa9, 0xbf, 0x8c, 0x5b, 0x02, 0xc0, 0x82, 0x3b, 0x4c, 0xbf, 
  0x9f, 0x05, 0xa1, 0x3d, 0xc8, 0x27, 0x0c, 0xbe, 0xcf, 0x6b, 0xf8, 0x3e, 
  0xc6, 0xa8, 0xb2, 0x3f, 0xfa, 0x63, 0x7e, 0x3f, 0x9b, 0x73, 0x9c, 0x3e, 
  0xa0, 0xfd, 0xa5, 0x3f, 0xa2, 0x7d, 0x0e, 0xbf, 0xdc, 0x48, 0xc9, 0x3d, 
  0x10, 0x77, 0x96, 0xbf, 0x0a, 0x9f, 0x83, 0xbf, 0x99, 0xd9, 0x83, 0x3e, 
  0x3b, 0x54, 0xa2, 0xbf, 0x19, 0x37, 0x3b, 0x3f, 0x59, 0xa4, 0x79, 0x3f, 
  0x71, 0xa9, 0x52, 0xbe, 0xae, 0x61, 0x40, 0xbf, 0x06, 0x7f, 0x96, 0x3f, 
  0x01, 0x30, 0x9c, 0x3f, 0xef, 0x8f, 0x17, 0xbf, 0x98, 0x33, 0x0b, 0xbe, 
  0x89, 0xb3, 0xe2, 0xbd, 0xf4, 0x70, 0x0a, 0x3f, 0x0b, 0x7b, 0x86, 0xbe, 
  0x76, 0xc1, 0x84, 0xbe, 0xb8, 0x1d, 0x0e, 0xbf, 0x8b, 0xfc, 0xd2, 0x3e, 
  0xb2, 0x0d, 0x24, 0x3f, 0x02, 0xf4, 0xb7, 0x3e, 0x22, 0xff, 0xff, 0xff, 
  0x04, 0x00, 0x00, 0x00, 0x10, 0x00, 0x00, 0x00, 0x96, 0x42, 0x20, 0xbd, 
  0x81, 0x22, 0x54, 0x3f, 0x1b, 0x2f, 0xaa, 0xbf, 0xc4, 0x3f, 0x0a, 0x3f, 
  0x3e, 0xff, 0xff, 0xff, 0x04, 0x00, 0x00, 0x00, 0x20, 0x00, 0x00, 0x00, 
  0x8e, 0x78, 0x62, 0x3e, 0x6f, 0x9e, 0xb6, 0x3e, 0xeb, 0x74, 0x08, 0x3e, 
  0x13, 0x0b, 0xfc, 0x3d, 0xe5, 0xd4, 0x46, 0xbe, 0x64, 0xad, 0x01, 0xbd, 
  0x0e, 0x11, 0xe3, 0x3e, 0x8d, 0x24, 0x1f, 0x3f, 0x00, 0xfa, 0xff, 0xff, 
  0x04, 0xfa, 0xff, 0xff, 0x0f, 0x00, 0x00, 0x00, 0x4d, 0x4c, 0x49, 0x52, 
  0x20, 0x43, 0x6f, 0x6e, 0x76, 0x65, 0x72, 0x74, 0x65, 0x64, 0x2e, 0x00, 
  0x01, 0x00, 0x00, 0x00, 0x14, 0x00, 0x00, 0x00, 0x00, 0x00, 0x0e, 0x00, 
  0x18, 0x00, 0x14, 0x00, 0x10, 0x00, 0x0c, 0x00, 0x08, 0x00, 0x04, 0x00, 
  0x0e, 0x00, 0x00, 0x00, 0x14, 0x00, 0x00, 0x00, 0x1c, 0x00, 0x00, 0x00, 
  0x34, 0x01, 0x00, 0x00, 0x38, 0x01, 0x00, 0x00, 0x3c, 0x01, 0x00, 0x00, 
  0x04, 0x00, 0x00, 0x00, 0x6d, 0x61, 0x69, 0x6e, 0x00, 0x00, 0x00, 0x00, 
  0x04, 0x00, 0x00, 0x00, 0xdc, 0x00, 0x00, 0x00, 0x94, 0x00, 0x00, 0x00, 
  0x50, 0x00, 0x00, 0x00, 0x14, 0x00, 0x00, 0x00, 0x00, 0x00, 0x0e, 0x00, 
  0x1a, 0x00, 0x14, 0x00, 0x10, 0x00, 0x0c, 0x00, 0x0b, 0x00, 0x04, 0x00, 
  0x0e, 0x00, 0x00, 0x00, 0x1c, 0x00, 0x00, 0x00, 0x00, 0x00, 0x00, 0x09, 
  0x1c, 0x00, 0x00, 0x00, 0x20, 0x00, 0x00, 0x00, 0x01, 0x00, 0x00, 0x00, 
  0x00, 0x00, 0x06, 0x00, 0x08, 0x00, 0x04, 0x00, 0x06, 0x00, 0x00, 0x00, 
  0x00, 0x00, 0x80, 0x3f, 0x01, 0x00, 0x00, 0x00, 0x0a, 0x00, 0x00, 0x00, 
  0x01, 0x00, 0x00, 0x00, 0x09, 0x00, 0x00, 0x00, 0xce, 0xff, 0xff, 0xff, 
  0x10, 0x00, 0x00, 0x00, 0x00, 0x00, 0x00, 0x08, 0x0c, 0x00, 0x00, 0x00, 
  0x10, 0x00, 0x00, 0x00, 0xc8, 0xfa, 0xff, 0xff, 0x01, 0x00, 0x00, 0x00, 
  0x09, 0x00, 0x00, 0x00, 0x03, 0x00, 0x00, 0x00, 0x08, 0x00, 0x00, 0x00, 
  0x03, 0x00, 0x00, 0x00, 0x02, 0x00, 0x00, 0x00, 0x00, 0x00, 0x0e, 0x00, 
  0x14, 0x00, 0x00, 0x00, 0x10, 0x00, 0x0c, 0x00, 0x0b, 0x00, 0x04, 0x00, 
  0x0e, 0x00, 0x00, 0x00, 0x10, 0x00, 0x00, 0x00, 0x00, 0x00, 0x00, 0x08, 
  0x10, 0x00, 0x00, 0x00, 0x14, 0x00, 0x00, 0x00, 0xba, 0xff, 0xff, 0xff, 
  0x00, 0x00, 0x00, 0x01, 0x01, 0x00, 0x00, 0x00, 0x08, 0x00, 0x00, 0x00, 
  0x03, 0x00, 0x00, 0x00, 0x07, 0x00, 0x00, 0x00, 0x04, 0x00, 0x00, 0x00, 
  0x01, 0x00, 0x00, 0x00, 0x00, 0x00, 0x0e, 0x00, 0x16, 0x00, 0x00, 0x00, 
  0x10, 0x00, 0x0c, 0x00, 0x0b, 0x00, 0x04, 0x00, 0x0e, 0x00, 0x00, 0x00, 
  0x18, 0x00, 0x00, 0x00, 0x00, 0x00, 0x00, 0x08, 0x18, 0x00, 0x00, 0x00, 
  0x1c, 0x00, 0x00, 0x00, 0x00, 0x00, 0x06, 0x00, 0x08, 0x00, 0x07, 0x00, 
  0x06, 0x00, 0x00, 0x00, 0x00, 0x00, 0x00, 0x01, 0x01, 0x00, 0x00, 0x00, 
  0x07, 0x00, 0x00, 0x00, 0x03, 0x00, 0x00, 0x00, 0x00, 0x00, 0x00, 0x00, 
  0x05, 0x00, 0x00, 0x00, 0x06, 0x00, 0x00, 0x00, 0x01, 0x00, 0x00, 0x00, 
  0x0a, 0x00, 0x00, 0x00, 0x01, 0x00, 0x00, 0x00, 0x00, 0x00, 0x00, 0x00, 
  0x0b, 0x00, 0x00, 0x00, 0x50, 0x04, 0x00, 0x00, 0xd0, 0x03, 0x00, 0x00, 
  0x6c, 0x03, 0x00, 0x00, 0x1c, 0x03, 0x00, 0x00, 0xcc, 0x02, 0x00, 0x00, 
  0x7c, 0x02, 0x00, 0x00, 0x14, 0x02, 0x00, 0x00, 0x78, 0x01, 0x00, 0x00, 
  0xdc, 0x00, 0x00, 0x00, 0x60, 0x00, 0x00, 0x00, 0x04, 0x00, 0x00, 0x00, 
  0xf2, 0xfb, 0xff, 0xff, 0x00, 0x00, 0x00, 0x01, 0x14, 0x00, 0x00, 0x00, 
  0x1c, 0x00, 0x00, 0x00, 0x1c, 0x00, 0x00, 0x00, 0x0b, 0x00, 0x00, 0x00, 
  0x34, 0x00, 0x00, 0x00, 0x02, 0x00, 0x00, 0x00, 0xff, 0xff, 0xff, 0xff, 
  0x04, 0x00, 0x00, 0x00, 0xdc, 0xfb, 0xff, 0xff, 0x1b, 0x00, 0x00, 0x00, 
  0x53, 0x74, 0x61, 0x74, 0x65, 0x66, 0x75, 0x6c, 0x50, 0x61, 0x72, 0x74, 
  0x69, 0x74, 0x69, 0x6f, 0x6e, 0x65, 0x64, 0x43, 0x61, 0x6c, 0x6c, 0x5f, 
  0x31, 0x3a, 0x30, 0x00, 0x02, 0x00, 0x00, 0x00, 0x01, 0x00, 0x00, 0x00, 
  0x04, 0x00, 0x00, 0x00, 0x4a, 0xfc, 0xff, 0xff, 0x00, 0x00, 0x00, 0x01, 
  0x14, 0x00, 0x00, 0x00, 0x1c, 0x00, 0x00, 0x00, 0x1c, 0x00, 0x00, 0x00, 
  0x0a, 0x00, 0x00, 0x00, 0x54, 0x00, 0x00, 0x00, 0x02, 0x00, 0x00, 0x00, 
  0xff, 0xff, 0xff, 0xff, 0x04, 0x00, 0x00, 0x00, 0x34, 0xfc, 0xff, 0xff, 
  0x3a, 0x00, 0x00, 0x00, 0x73, 0x65, 0x71, 0x75, 0x65, 0x6e, 0x74, 0x69, 
  0x61, 0x6c, 0x5f, 0x31, 0x2f, 0x6f, 0x75, 0x74, 0x70, 0x75, 0x74, 0x5f, 
  0x31, 0x2f, 0x4d, 0x61, 0x74, 0x4d, 0x75, 0x6c, 0x3b, 0x73, 0x65, 0x71, 
  0x75, 0x65, 0x6e, 0x74, 0x69, 0x61, 0x6c, 0x5f, 0x31, 0x2f, 0x6f, 0x75, 
  0x74, 0x70, 0x75, 0x74, 0x5f, 0x31, 0x2f, 0x42, 0x69, 0x61, 0x73, 0x41, 
  0x64, 0x64, 0x00, 0x00, 0x02, 0x00, 0x00, 0x00, 0x01, 0x00, 0x00, 0x00, 
  0x04, 0x00, 0x00, 0x00, 0xc2, 0xfc, 0xff, 0xff, 0x00, 0x00, 0x00, 0x01, 
  0x14, 0x00, 0x00, 0x00, 0x1c, 0x00, 0x00, 0x00, 0x1c, 0x00, 0x00, 0x00, 
  0x09, 0x00, 0x00, 0x00, 0x74, 0x00, 0x00, 0x00, 0x02, 0x00, 0x00, 0x00, 
  0xff, 0xff, 0xff, 0xff, 0x08, 0x00, 0x00, 0x00, 0xac, 0xfc, 0xff, 0xff, 
  0x58, 0x00, 0x00, 0x00, 0x73, 0x65, 0x71, 0x75, 0x65, 0x6e, 0x74, 0x69, 
  0x61, 0x6c, 0x5f, 0x31, 0x2f, 0x68, 0x69, 0x64, 0x64, 0x65, 0x6e, 0x32, 
  0x5f, 0x31, 0x2f, 0x4d, 0x61, 0x74, 0x4d, 0x75, 0x6c, 0x3b, 0x73, 0x65, 
  0x71, 0x75, 0x65, 0x6e, 0x74, 0x69, 0x61, 0x6c, 0x5f, 0x31, 0x2f, 0x68, 
  0x69, 0x64, 0x64, 0x65, 0x6e, 0x32, 0x5f, 0x31, 0x2f, 0x52, 0x65, 0x6c, 
  0x75, 0x3b, 0x73, 0x65, 0x71, 0x75, 0x65, 0x6e, 0x74, 0x69, 0x61, 0x6c, 
  0x5f, 0x31, 0x2f, 0x68, 0x69, 0x64, 0x64, 0x65, 0x6e, 0x32, 0x5f, 0x31, 
  0x2f, 0x42, 0x69, 0x61, 0x73, 0x41, 0x64, 0x64, 0x00, 0x00, 0x00, 0x00, 
  0x02, 0x00, 0x00, 0x00, 0x01, 0x00, 0x00, 0x00, 0x08, 0x00, 0x00, 0x00, 
  0x5a, 0xfd, 0xff, 0xff, 0x00, 0x00, 0x00, 0x01, 0x14, 0x00, 0x00, 0x00, 
  0x1c, 0x00, 0x00, 0x00, 0x1c, 0x00, 0x00, 0x00, 0x08, 0x00, 0x00, 0x00, 
  0x74, 0x00, 0x00, 0x00, 0x02, 0x00, 0x00, 0x00, 0xff, 0xff, 0xff, 0xff, 
  0x10, 0x00, 0x00, 0x00, 0x44, 0xfd, 0xff, 0xff, 0x58, 0x00, 0x00, 0x00, 
  0x73, 0x65, 0x71, 0x75, 0x65, 0x6e, 0x74, 0x69, 0x61, 0x6c, 0x5f, 0x31, 
  0x2f, 0x68, 0x69, 0x64, 0x64, 0x65, 0x6e, 0x31, 0x5f, 0x31, 0x2f, 0x4d, 
  0x61, 0x74, 0x4d, 0x75, 0x6c, 0x3b, 0x73, 0x65, 0x71, 0x75, 0x65, 0x6e, 
  0x74, 0x69, 0x61, 0x6c, 0x5f, 0x31, 0x2f, 0x68, 0x69, 0x64, 0x64, 0x65, 
  0x6e, 0x31, 0x5f, 0x31, 0x2f, 0x52, 0x65, 0x6c, 0x75, 0x3b, 0x73, 0x65, 
  0x71, 0x75, 0x65, 0x6e, 0x74, 0x69, 0x61, 0x6c, 0x5f, 0x31, 0x2f, 0x68, 
  0x69, 0x64, 0x64, 0x65, 0x6e, 0x31, 0x5f, 0x31, 0x2f, 0x42, 0x69, 0x61, 
  0x73, 0x41, 0x64, 0x64, 0x00, 0x00, 0x00, 0x00, 0x02, 0x00, 0x00, 0x00, 
  0x01, 0x00, 0x00, 0x00, 0x10, 0x00, 0x00, 0x00, 0x6e, 0xfe, 0xff, 0xff, 
  0x00, 0x00, 0x00, 0x01, 0x10, 0x00, 0x00, 0x00, 0x10, 0x00, 0x00, 0x00, 
  0x07, 0x00, 0x00, 0x00, 0x48, 0x00, 0x00, 0x00, 0xcc, 0xfd, 0xff, 0xff, 
  0x3a, 0x00, 0x00, 0x00, 0x73, 0x65, 0x71, 0x75, 0x65, 0x6e, 0x74, 0x69, 
  0x61, 0x6c, 0x5f, 0x31, 0x2f, 0x68, 0x69, 0x64, 0x64, 0x65, 0x6e, 0x31, 
  0x5f, 0x31, 0x2f, 0x52, 0x65, 0x6c, 0x75, 0x3b, 0x73, 0x65, 0x71, 0x75, 
  0x65, 0x6e, 0x74, 0x69, 0x61, 0x6c, 0x5f, 0x31, 0x2f, 0x68, 0x69, 0x64, 
  0x64, 0x65, 0x6e, 0x31, 0x5f, 0x31, 0x2f, 0x42, 0x69, 0x61, 0x73, 0x41, 
  0x64, 0x64, 0x00, 0x00, 0x01, 0x00, 0x00, 0x00, 0x10, 0x00, 0x00, 0x00, 
  0xd2, 0xfe, 0xff, 0xff, 0x00, 0x00, 0x00, 0x01, 0x10, 0x00, 0x00, 0x00, 
  0x10, 0x00, 0x00, 0x00, 0x06, 0x00, 0x00, 0x00, 0x2c, 0x00, 0x00, 0x00, 
  0x30, 0xfe, 0xff, 0xff, 0x1d, 0x00, 0x00, 0x00, 0x73, 0x65, 0x71, 0x75, 
  0x65, 0x6e, 0x74, 0x69, 0x61, 0x6c, 0x5f, 0x31, 0x2f, 0x68, 0x69, 0x64, 
  0x64, 0x65, 0x6e, 0x31, 0x5f, 0x31, 0x2f, 0x4d, 0x61, 0x74, 0x4d, 0x75, 
  0x6c, 0x00, 0x00, 0x00, 0x02, 0x00, 0x00, 0x00, 0x10, 0x00, 0x00, 0x00, 
  0x09, 0x00, 0x00, 0x00, 0x1e, 0xff, 0xff, 0xff, 0x00, 0x00, 0x00, 0x01, 
  0x10, 0x00, 0x00, 0x00, 0x10, 0x00, 0x00, 0x00, 0x05, 0x00, 0x00, 0x00, 
  0x2c, 0x00, 0x00, 0x00, 0x7c, 0xfe, 0xff, 0xff, 0x1d, 0x00, 0x00, 0x00, 
  0x73, 0x65, 0x71, 0x75, 0x65, 0x6e, 0x74, 0x69, 0x61, 0x6c, 0x5f, 0x31, 
  0x2f, 0x68, 0x69, 0x64, 0x64, 0x65, 0x6e, 0x32, 0x5f, 0x31, 0x2f, 0x4d, 
  0x61, 0x74, 0x4d, 0x75, 0x6c, 0x00, 0x00, 0x00, 0x02, 0x00, 0x00, 0x00, 
  0x08, 0x00, 0x00, 0x00, 0x10, 0x00, 0x00, 0x00, 0x6a, 0xff, 0xff, 0xff, 
  0x00, 0x00, 0x00, 0x01, 0x10, 0x00, 0x00, 0x00, 0x10, 0x00, 0x00, 0x00, 
  0x04, 0x00, 0x00, 0x00, 0x2c, 0x00, 0x00, 0x00, 0xc8, 0xfe, 0xff, 0xff, 
  0x1c, 0x00, 0x00, 0x00, 0x73, 0x65, 0x71, 0x75, 0x65, 0x6e, 0x74, 0x69, 
  0x61, 0x6c, 0x5f, 0x31, 0x2f, 0x6f, 0x75, 0x74, 0x70, 0x75, 0x74, 0x5f, 
  0x31, 0x2f, 0x4d, 0x61, 0x74, 0x4d, 0x75, 0x6c, 0x00, 0x00, 0x00, 0x00, 
  0x02, 0x00, 0x00, 0x00, 0x04, 0x00, 0x00, 0x00, 0x08, 0x00, 0x00, 0x00, 
  0xb6, 0xff, 0xff, 0xff, 0x00, 0x00, 0x00, 0x01, 0x10, 0x00, 0x00, 0x00, 
  0x10, 0x00, 0x00, 0x00, 0x03, 0x00, 0x00, 0x00, 0x2c, 0x00, 0x00, 0x00, 
  0x14, 0xff, 0xff, 0xff, 0x1d, 0x00, 0x00, 0x00, 0x73, 0x65, 0x71, 0x75, 
  0x65, 0x6e, 0x74, 0x69, 0x61, 0x6c, 0x5f, 0x31, 0x2f, 0x6f, 0x75, 0x74, 
  0x70, 0x75, 0x74, 0x5f, 0x31, 0x2f, 0x42, 0x69, 0x61, 0x73, 0x41, 0x64, 
  0x64, 0x00, 0x00, 0x00, 0x01, 0x00, 0x00, 0x00, 0x04, 0x00, 0x00, 0x00, 
  0x00, 0x00, 0x16, 0x00, 0x18, 0x00, 0x14, 0x00, 0x00, 0x00, 0x10, 0x00, 
  0x0c, 0x00, 0x08, 0x00, 0x00, 0x00, 0x00, 0x00, 0x00, 0x00, 0x07, 0x00, 
  0x16, 0x00, 0x00, 0x00, 0x00, 0x00, 0x00, 0x01, 0x10, 0x00, 0x00, 0x00, 
  0x10, 0x00, 0x00, 0x00, 0x02, 0x00, 0x00, 0x00, 0x48, 0x00, 0x00, 0x00, 
  0x74, 0xff, 0xff, 0xff, 0x3a, 0x00, 0x00, 0x00, 0x73, 0x65, 0x71, 0x75, 
  0x65, 0x6e, 0x74, 0x69, 0x61, 0x6c, 0x5f, 0x31, 0x2f, 0x68, 0x69, 0x64, 
  0x64, 0x65, 0x6e, 0x32, 0x5f, 0x31, 0x2f, 0x52, 0x65, 0x6c, 0x75, 0x3b, 
  0x73, 0x65, 0x71, 0x75, 0x65, 0x6e, 0x74, 0x69, 0x61, 0x6c, 0x5f, 0x31, 
  0x2f, 0x68, 0x69, 0x64, 0x64, 0x65, 0x6e, 0x32, 0x5f, 0x31, 0x2f, 0x42, 
  0x69, 0x61, 0x73, 0x41, 0x64, 0x64, 0x00, 0x00, 0x01, 0x00, 0x00, 0x00, 
  0x08, 0x00, 0x00, 0x00, 0x00, 0x00, 0x16, 0x00, 0x1c, 0x00, 0x18, 0x00, 
  0x00, 0x00, 0x14, 0x00, 0x10, 0x00, 0x0c, 0x00, 0x00, 0x00, 0x00, 0x00, 
  0x08, 0x00, 0x07, 0x00, 0x16, 0x00, 0x00, 0x00, 0x00, 0x00, 0x00, 0x01, 
  0x14, 0x00, 0x00, 0x00, 0x20, 0x00, 0x00, 0x00, 0x20, 0x00, 0x00, 0x00, 
  0x01, 0x00, 0x00, 0x00, 0x3c, 0x00, 0x00, 0x00, 0x02, 0x00, 0x00, 0x00, 
  0xff, 0xff, 0xff, 0xff, 0x09, 0x00, 0x00, 0x00, 0x04, 0x00, 0x04, 0x00, 
  0x04, 0x00, 0x00, 0x00, 0x1e, 0x00, 0x00, 0x00, 0x73, 0x65, 0x72, 0x76, 
  0x69, 0x6e, 0x67, 0x5f, 0x64, 0x65, 0x66, 0x61, 0x75, 0x6c, 0x74, 0x5f, 
  0x6b, 0x65, 0x72, 0x61, 0x73, 0x5f, 0x74, 0x65, 0x6e, 0x73, 0x6f, 0x72, 
  0x3a, 0x30, 0x00, 0x00, 0x02, 0x00, 0x00, 0x00, 0x01, 0x00, 0x00, 0x00, 
  0x09, 0x00, 0x00, 0x00, 0x02, 0x00, 0x00, 0x00, 0x20, 0x00, 0x00, 0x00, 
  0x04, 0x00, 0x00, 0x00, 0xf4, 0xff, 0xff, 0xff, 0x19, 0x00, 0x00, 0x00, 
  0x00, 0x00, 0x00, 0x19, 0x0c, 0x00, 0x0c, 0x00, 0x0b, 0x00, 0x00, 0x00, 
  0x00, 0x00, 0x04, 0x00, 0x0c, 0x00, 0x00, 0x00, 0x09, 0x00, 0x00, 0x00, 
  0x00, 0x00, 0x00, 0x09
};

#endif  // MODEL_DATA_H
