/**
 * Auto-generated TFLite model data.
 * Architecture: 9 -> 16 -> 8 -> 4
 * Total weights: 332
 *
 * Generated by: tflite_model_manager.py
 */

#ifndef MODEL_DATA_H
#define MODEL_DATA_H

const unsigned int g_model_data_len = 3532;

alignas(8) const unsigned char g_model_data[] = {
  0x1c, 0x00, 0x00, 0x00, 0x54, 0x46, 0x4c, 0x33, 0x14, 0x00, 0x20, 0x00, 
  0x1c, 0x00, 0x18, 0x00, 0x14, 0x00, 0x10, 0x00, 0x0c, 0x00, 0x00, 0x00, 
  0x08, 0x00, 0x04, 0x00, 0x14, 0x00, 0x00, 0x00, 0x1c, 0x00, 0x00, 0x00, 
  0x98, 0x00, 0x00, 0x00, 0xf0, 0x00, 0x00, 0x00, 0x40, 0x07, 0x00, 0x00, 
  0x50, 0x07, 0x00, 0x00, 0x68, 0x0d, 0x00, 0x00, 0x03, 0x00, 0x00, 0x00, 
  0x01, 0x00, 0x00, 0x00, 0x10, 0x00, 0x00, 0x00, 0x00, 0x00, 0x0a, 0x00, 
  0x10, 0x00, 0x0c, 0x00, 0x08, 0x00, 0x04, 0x00, 0x0a, 0x00, 0x00, 0x00, 
  0x0c, 0x00, 0x00, 0x00, 0x1c, 0x00, 0x00, 0x00, 0x3c, 0x00, 0x00, 0x00, 
  0x0f, 0x00, 0x00, 0x00, 0x73, 0x65, 0x72, 0x76, 0x69, 0x6e, 0x67, 0x5f, 
  0x64, 0x65, 0x66, 0x61, 0x75, 0x6c, 0x74, 0x00, 0x01, 0x00, 0x00, 0x00, 
  0x04, 0x00, 0x00, 0x00, 0x90, 0xff, 0xff, 0xff, 0x0a, 0x00, 0x00, 0x00, 
  0x04, 0x00, 0x00, 0x00, 0x08, 0x00, 0x00, 0x00, 0x6f, 0x75, 0x74, 0x70, 
  0x75, 0x74, 0x5f, 0x30, 0x00, 0x00, 0x00, 0x00, 0x01, 0x00, 0x00, 0x00, 
  0x04, 0x00, 0x00, 0x00, 0xa6, 0xf8, 0xff, 0xff, 0x04, 0x00, 0x00, 0x00, 
  0x0c, 0x00, 0x00, 0x00, 0x6b, 0x65, 0x72, 0x61, 0x73, 0x5f, 0x74, 0x65, 
  0x6e, 0x73, 0x6f, 0x72, 0x00, 0x00, 0x00, 0x00, 0x02, 0x00, 0x00, 0x00, 
  0x34, 0x00, 0x00, 0x00, 0x04, 0x00, 0x00, 0x00, 0xdc, 0xff, 0xff, 0xff, 
  0x0d, 0x00, 0x00, 0x00, 0x04, 0x00, 0x00, 0x00, 0x13, 0x00, 0x00, 0x00, 
  0x43, 0x4f, 0x4e, 0x56, 0x45, 0x52, 0x53, 0x49, 0x4f, 0x4e, 0x5f, 0x4d, 
  0x45, 0x54, 0x41, 0x44, 0x41, 0x54, 0x41, 0x00, 0x08, 0x00, 0x0c, 0x00, 
  0x08, 0x00, 0x04, 0x00, 0x08, 0x00, 0x00, 0x00, 0x0c, 0x00, 0x00, 0x00, 
  0x04, 0x00, 0x00, 0x00, 0x13, 0x00, 0x00, 0x00, 0x6d, 0x69, 0x6e, 0x5f, 
  0x72, 0x75, 0x6e, 0x74, 0x69, 0x6d, 0x65, 0x5f, 0x76, 0x65, 0x72, 0x73, 
  0x69, 0x6f, 0x6e, 0x00, 0x0e, 0x00, 0x00, 0x00, 0x4c, 0x06, 0x00, 0x00, 
  0x44, 0x06, 0x00, 0x00, 0x14, 0x06, 0x00, 0x00, 0xf4, 0x05, 0x00, 0x00, 
  0x64, 0x05, 0x00, 0x00, 0x54, 0x03, 0x00, 0x00, 0x04, 0x01, 0x00, 0x00, 
  0xb4, 0x00, 0x00, 0x00, 0xac, 0x00, 0x00, 0x00, 0xa4, 0x00, 0x00, 0x00, 
  0x9c, 0x00, 0x00, 0x00, 0x94, 0x00, 0x00, 0x00, 0x74, 0x00, 0x00, 0x00, 
  0x04, 0x00, 0x00, 0x00, 0x5a, 0xf9, 0xff, 0xff, 0x04, 0x00, 0x00, 0x00, 
  0x60, 0x00, 0x00, 0x00, 0x10, 0x00, 0x00, 0x00, 0x00, 0x00, 0x00, 0x00, 
  0x08, 0x00, 0x0e, 0x00, 0x08, 0x00, 0x04, 0x00, 0x08, 0x00, 0x00, 0x00, 
  0x10, 0x00, 0x00, 0x00, 0x24, 0x00, 0x00, 0x00, 0x00, 0x00, 0x06, 0x00, 
  0x08, 0x00, 0x04, 0x00, 0x06, 0x00, 0x00, 0x00, 0x04, 0x00, 0x00, 0x00, 
  0x00, 0x00, 0x00, 0x00, 0x0c, 0x00, 0x18, 0x00, 0x14, 0x00, 0x10, 0x00, 
  0x0c, 0x00, 0x04, 0x00, 0x0c, 0x00, 0x00, 0x00, 0xb2, 0x01, 0xdb, 0xb3, 
  0x32, 0x92, 0x2a, 0x9c, 0x02, 0x00, 0x00, 0x00, 0x02, 0x00, 0x00, 0x00, 
  0x04, 0x00, 0x00, 0x00, 0x06, 0x00, 0x00, 0x00, 0x32, 0x2e, 0x32, 0x31, 
  0x2e, 0x30, 0x00, 0x00, 0xc6, 0xf9, 0xff, 0xff, 0x04, 0x00, 0x00, 0x00, 
  0x10, 0x00, 0x00, 0x00, 0x31, 0x2e, 0x35, 0x2e, 0x30, 0x00, 0x00, 0x00, 
  0x00, 0x00, 0x00, 0x00, 0x00, 0x00, 0x00, 0x00, 0x78, 0xf4, 0xff, 0xff, 
  0x7c, 0xf4, 0xff, 0xff, 0x80, 0xf4, 0xff, 0xff, 0x84, 0xf4, 0xff, 0xff, 
  0xf2, 0xf9, 0xff, 0xff, 0x04, 0x00, 0x00, 0x00, 0x40, 0x00, 0x00, 0x00, 
  0x21, 0xf6, 0x3a, 0x40, 0x5f, 0xef, 0x3e, 0xbe, 0xb6, 0xf7, 0x8e, 0x40, 
  0xcb, 0x4b, 0xde, 0x3e, 0xaf, 0x08, 0x8d, 0x3f, 0xca, 0xfd, 0x2e, 0x40, 
  0x2f, 0x30, 0xb3, 0xbe, 0x5d, 0xfd, 0xf2, 0x3f, 0xce, 0x37, 0x02, 0x3e, 
  0x28, 0xf1, 0xbd, 0x3f, 0x4f, 0x76, 0x33, 0xbd, 0xd8, 0xa8, 0x47, 0x40, 
  0xd7, 0xf8, 0x1c, 0x3e, 0x74, 0xd3, 0x60, 0x3f, 0xd9, 0x5d, 0xa0, 0xbd, 
  0x6e, 0xdb, 0x33, 0x3f, 0x3e, 0xfa, 0xff, 0xff, 0x04, 0x00, 0x00, 0x00, 
  0x40, 0x02, 0x00, 0x00, 0xfe, 0xe5, 0x6e, 0x40, 0x39, 0x9a, 0x4b, 0x3e, 
  0x38, 0xf4, 0x04, 0x3f, 0x30, 0x4b, 0xab, 0xbd, 0xb6, 0xd9, 0x98, 0x3c, 
  0xea, 0x79, 0xc7, 0x3d, 0xfd, 0xa4, 0x0a, 0xbe, 0x9b, 0xaf, 0x42, 0xbe, 
  0x7b, 0xf4, 0xc6, 0xbe, 0x70, 0x95, 0xa7, 0xbc, 0x5b, 0xb6, 0xc6, 0xbe, 
  0xf1, 0x64, 0xf7, 0xbd, 0xf4, 0x35, 0x7b, 0xbe, 0xde, 0x1e, 0x04, 0x3d, 
  0x04, 0x73, 0x14, 0xbe, 0x94, 0xdb, 0xce, 0xbe, 0xb6, 0xf6, 0x9e, 0x3d, 
  0xb5, 0xde, 0xaf, 0x3d, 0xdc, 0xbf, 0x97, 0x40, 0x10, 0xe6, 0x04, 0x3f, 
  0x23, 0xda, 0x2a, 0x3f, 0x01, 0x6e, 0x5e, 0xbe, 0x34, 0xbe, 0xaf, 0xbd, 
  0x2a, 0x1b, 0x56, 0x3e, 0x1b, 0xa1, 0xbf, 0xbe, 0x1c, 0x26, 0xa2, 0xbe, 
  0xc0, 0x3f, 0xa5, 0xbe, 0xeb, 0x55, 0xb3, 0x3f, 0x0f, 0xd1, 0x68, 0x3e, 
  0x6f, 0x9c, 0x02, 0xbf, 0xcc, 0x9b, 0x93, 0xbf, 0xae, 0x64, 0x27, 0xbe, 
  0xad, 0x15, 0x33, 0xbf, 0x9a, 0xb6, 0xe7, 0x3e, 0xbd, 0xe5, 0xb2, 0x3e, 
  0x8d, 0x43, 0xd5, 0x3e, 0xc8, 0x7b, 0xa5, 0x3e, 0x3c, 0xa4, 0x6e, 0x3f, 
  0xf9, 0x66, 0x77, 0xbf, 0x6e, 0xc0, 0x21, 0x3f, 0x99, 0x63, 0xa1, 0xbe, 
  0x10, 0xaf, 0x37, 0xbf, 0x88, 0xf7, 0xcc, 0x3e, 0x03, 0xb0, 0x81, 0x3e, 
  0x87, 0xa8, 0xa2, 0x3d, 0x3a, 0xce, 0x59, 0x40, 0x8a, 0x20, 0xae, 0xbd, 
  0xf6, 0x0d, 0xfc, 0x3d, 0xba, 0xf7, 0x50, 0x3e, 0xac, 0xaa, 0x37, 0xbd, 
  0xe8, 0x6b, 0xc2, 0xbe, 0x3e, 0x5e, 0x48, 0x3e, 0x90, 0x30, 0x5c, 0x3e, 
  0x0a, 0xa3, 0x19, 0xbe, 0x49, 0xd7, 0xc4, 0x3e, 0xca, 0xf9, 0x06, 0x3f, 
  0x03, 0x7c, 0x89, 0xbf, 0x50, 0xc3, 0x1f, 0x3f, 0xfe, 0xb6, 0xc7, 0x3d, 
  0x1d, 0xc9, 0xd1, 0x3e, 0xd5, 0xe7, 0x6a, 0xbe, 0x81, 0x43, 0x88, 0xbd, 
  0x0d, 0x6f, 0xb6, 0x3d, 0xe7, 0xe3, 0x98, 0x3f, 0xc0, 0x59, 0x94, 0x3f, 
  0xb8, 0xae, 0xdf, 0x3f, 0xb2, 0x2c, 0xcc, 0x3e, 0x19, 0x70, 0x3e, 0xbe, 
  0xd5, 0x97, 0xc1, 0x3e, 0x68, 0x5d, 0xeb, 0x3e, 0x1d, 0x76, 0xff, 0x3d, 
  0x5e, 0x63, 0xef, 0xbe, 0x1f, 0xf8, 0xe0, 0xbe, 0x0b, 0x41, 0x96, 0x3e, 
  0x24, 0x81, 0x86, 0xbc, 0x5a, 0xd8, 0xd3, 0x3c, 0xa1, 0x80, 0xd5, 0x3e, 
  0x93, 0xfd, 0xe3, 0xbe, 0x41, 0xd6, 0x8b, 0x3e, 0xcf, 0xc0, 0xa8, 0x3d, 
  0xdd, 0x09, 0xe6, 0x3e, 0x98, 0xde, 0x8a, 0x3f, 0x6a, 0xa0, 0xe9, 0xbe, 
  0x88, 0xb9, 0x24, 0x3d, 0x50, 0xe1, 0x98, 0xbd, 0x55, 0xf6, 0x37, 0xbf, 
  0x5d, 0xde, 0x04, 0xbf, 0xb2, 0x9b, 0x59, 0x3e, 0xb8, 0x57, 0x16, 0x3e, 
  0x85, 0x0a, 0x8e, 0xbc, 0xb8, 0xcd, 0xac, 0xbe, 0xce, 0xc2, 0xde, 0xbd, 
  0x78, 0x27, 0x6b, 0x3f, 0x4b, 0x75, 0x5d, 0xbf, 0x73, 0x9e, 0xd9, 0xbe, 
  0x75, 0xe8, 0x70, 0xbf, 0x19, 0x39, 0x4b, 0xbd, 0x47, 0x77, 0xd0, 0xbe, 
  0xf5, 0xd5, 0x8d, 0x3e, 0xa9, 0x7a, 0x5e, 0x40, 0x2a, 0xe1, 0x0f, 0xbf, 
  0x2a, 0x8f, 0x82, 0x3e, 0x24, 0x81, 0x46, 0xbf, 0x07, 0x5e, 0x2d, 0x3d, 
  0x15, 0x1f, 0xac, 0x3f, 0x45, 0x83, 0x64, 0xbe, 0x91, 0xf1, 0xa8, 0xbd, 
  0x58, 0x53, 0xd1, 0xbe, 0xe5, 0x5e, 0xf0, 0xbe, 0x6e, 0x17, 0x2e, 0xbf, 
  0x9a, 0x77, 0xb2, 0x3f, 0xee, 0x07, 0x20, 0x3f, 0x46, 0x08, 0x8f, 0x3d, 
  0xa5, 0x67, 0x3a, 0xbd, 0xf2, 0x78, 0xca, 0xbe, 0xb6, 0xf3, 0xe5, 0xbe, 
  0xf1, 0x2b, 0x56, 0xbc, 0xb6, 0x2e, 0x93, 0x3f, 0xd2, 0xc7, 0x74, 0x3e, 
  0xe8, 0xf5, 0x2f, 0x3f, 0x5a, 0x45, 0x4f, 0xbe, 0xc4, 0xd0, 0xce, 0x3e, 
  0x3f, 0x71, 0x98, 0xbe, 0xb6, 0xf7, 0xc9, 0x3e, 0x20, 0xf0, 0xc0, 0xbb, 
  0x23, 0x2d, 0x15, 0xbc, 0xbf, 0x9a, 0xa7, 0x3e, 0x7c, 0xb9, 0xd7, 0x3e, 
  0xf3, 0xaf, 0x95, 0x3e, 0x03, 0xeb, 0xe0, 0x3e, 0xb3, 0xd1, 0xf9, 0x3d, 
  0xc8, 0x5f, 0xad, 0xbf, 0xcc, 0x7a, 0x31, 0xbd, 0xab, 0xb3, 0x2a, 0xbe, 
  0x66, 0xa3, 0xdb, 0x3e, 0xfa, 0xd2, 0x63, 0xbf, 0x65, 0xc7, 0x8e, 0x3e, 
  0xa1, 0x65, 0x5d, 0x3d, 0x42, 0x76, 0x86, 0x3e, 0xe8, 0x2f, 0xb4, 0x3e, 
  0xb1, 0x19, 0x20, 0x3e, 0x9c, 0x4f, 0x95, 0xbe, 0x97, 0x53, 0xb2, 0xbe, 
  0x70, 0xee, 0x8f, 0x3d, 0x8a, 0xfc, 0xff, 0xff, 0x04, 0x00, 0x00, 0x00, 
  0x00, 0x02, 0x00, 0x00, 0x63, 0x26, 0xe4, 0x3f, 0x7f, 0xc0, 0xab, 0xbe, 
  0x5b, 0x41, 0xce, 0x3f, 0x81, 0x3f, 0x80, 0x3e, 0x2a, 0x1e, 0x07, 0x3e, 
  0x7a, 0x6e, 0xdb, 0x3f, 0x5f, 0x0d, 0x10, 0xbe, 0x5c, 0x93, 0xca, 0x3f, 
  0x08, 0xc7, 0x9c, 0xbe, 0xe4, 0xf9, 0x50, 0x3f, 0x61, 0x53, 0x67, 0xbd, 
  0x41, 0x7f, 0xf7, 0x3f, 0x2c, 0x82, 0x0b, 0x3f, 0x6e, 0x86, 0xdf, 0x3e, 
  0x60, 0x06, 0x39, 0x3f, 0x3d, 0x28, 0x34, 0x3f, 0xeb, 0xe1, 0x55, 0x3f, 
  0x55, 0x85, 0xa6, 0x3d, 0x75, 0x72, 0x09, 0x40, 0x52, 0x7e, 0xda, 0x3f, 
  0x12, 0x85, 0x97, 0x3f, 0x48, 0xa3, 0x76, 0x3f, 0xa5, 0x10, 0x2e, 0x3f, 
  0x2a, 0xaa, 0x00, 0x40, 0x09, 0xfe, 0x37, 0xbc, 0x36, 0xb0, 0xed, 0x3e, 
  0xb3, 0x08, 0xa3, 0x3f, 0xf6, 0x9b, 0xa0, 0x3f, 0x78, 0xb7, 0xbe, 0x3f, 
  0x94, 0x13, 0xe5, 0x3e, 0x93, 0x39, 0xaa, 0xbe, 0xa1, 0x2c, 0x9c, 0x3d, 
  0x51, 0x2d, 0xba, 0xbe, 0x6d, 0x91, 0xbc, 0xbe, 0x02, 0x67, 0xa1, 0xbe, 
  0xc9, 0x73, 0x1d, 0xbe, 0xac, 0x8f, 0x2b, 0x3f, 0x8c, 0x48, 0xe4, 0xbe, 
  0x46, 0xcd, 0xcf, 0xbe, 0xe3, 0x53, 0x10, 0xbe, 0x14, 0x7b, 0x98, 0x3e, 
  0x1a, 0xa6, 0x02, 0x3f, 0x6c, 0x04, 0xda, 0xbe, 0xb6, 0xd8, 0x35, 0x3f, 
  0x6e, 0xfc, 0xc1, 0xbe, 0x1c, 0x09, 0xd4, 0x3d, 0x53, 0x3d, 0xe9, 0xbe, 
  0xbf, 0xb8, 0x14, 0x3d, 0x2e, 0x59, 0x8c, 0x3f, 0xd7, 0x6a, 0x4f, 0x3e, 
  0x72, 0xa8, 0x59, 0x3f, 0x1e, 0xa8, 0x8b, 0x3e, 0x47, 0x8d, 0x47, 0x3f, 
  0x1f, 0x10, 0xf0, 0x3e, 0xc3, 0xb9, 0xaa, 0xbe, 0xa4, 0x8e, 0x78, 0x3f, 
  0xb2, 0x67, 0xd7, 0x3e, 0x68, 0x5d, 0x39, 0x3f, 0x48, 0x6f, 0x90, 0x3e, 
  0x0d, 0x18, 0xe4, 0x3f, 0x01, 0x6a, 0x7a, 0x3e, 0x1f, 0x9e, 0x45, 0x3f, 
  0x39, 0xef, 0xff, 0x3e, 0x12, 0x69, 0xab, 0x3e, 0xff, 0xec, 0xe6, 0x3f, 
  0x04, 0xfe, 0x70, 0xbe, 0xed, 0x11, 0xcf, 0x3f, 0x66, 0x4f, 0xb6, 0x3e, 
  0x5d, 0x6d, 0x3d, 0x3f, 0xbc, 0xe7, 0x31, 0x40, 0xd0, 0xd2, 0x15, 0x3e, 
  0x92, 0xe9, 0x18, 0x3e, 0xa4, 0x36, 0xd9, 0xbe, 0xd5, 0xcb, 0xa5, 0x3f, 
  0xe6, 0x5c, 0xba, 0x3e, 0x3f, 0xe5, 0xb0, 0x3f, 0xe4, 0x13, 0x92, 0x3d, 
  0x39, 0x0c, 0x0a, 0x3f, 0xa1, 0x9d, 0x0d, 0xbf, 0x1f, 0xb9, 0xfd, 0xbe, 
  0xed, 0xf1, 0x00, 0x40, 0x3b, 0xaa, 0x1a, 0x3e, 0x9d, 0x10, 0x0e, 0x40, 
  0xd5, 0x3c, 0x96, 0x3f, 0x48, 0xc4, 0xbc, 0x3f, 0xe0, 0x67, 0x44, 0x40, 
  0xcd, 0x75, 0x32, 0x3f, 0x71, 0x92, 0x52, 0x3f, 0x40, 0x32, 0x0d, 0x3e, 
  0x0c, 0x56, 0xcf, 0x3f, 0xdb, 0xdb, 0x25, 0xbf, 0x7b, 0x2e, 0x14, 0x40, 
  0x48, 0x17, 0x17, 0x3f, 0x7d, 0x05, 0xad, 0x3e, 0x19, 0x8f, 0x9e, 0x3e, 
  0x4b, 0xcb, 0xc0, 0xbe, 0xd8, 0xf3, 0xa8, 0x3f, 0xf9, 0xf6, 0x4e, 0x3e, 
  0x12, 0x16, 0x73, 0x3f, 0x8e, 0x20, 0xf1, 0xbe, 0xc8, 0x43, 0xa7, 0xbe, 
  0xff, 0x40, 0xc9, 0x3f, 0xe6, 0xb2, 0xd5, 0xbe, 0xe3, 0xa8, 0x3e, 0xbf, 
  0x9c, 0xa2, 0x23, 0x3e, 0xde, 0x59, 0x21, 0x3f, 0x2d, 0x7b, 0x3a, 0xbf, 
  0x3f, 0xfe, 0x62, 0x3e, 0x66, 0x2d, 0x65, 0xbe, 0x0f, 0x0d, 0x4b, 0xbd, 
  0xb0, 0xab, 0x29, 0xbe, 0x53, 0x25, 0x72, 0xbf, 0x18, 0x78, 0x99, 0x3f, 
  0x6a, 0xc1, 0x6b, 0x3e, 0x49, 0xbd, 0xa5, 0x3f, 0x37, 0x8b, 0x21, 0xbf, 
  0xa4, 0xfe, 0x26, 0xbf, 0x72, 0xa5, 0xd2, 0x3f, 0xc9, 0x3d, 0x51, 0xbf, 
  0xbd, 0xc6, 0xa1, 0x3f, 0x58, 0xe3, 0xec, 0x3d, 0xce, 0xe1, 0xb3, 0x3f, 
  0xd0, 0x29, 0xc8, 0xbd, 0xd6, 0xe5, 0xe4, 0xbd, 0xf6, 0xb2, 0x9d, 0xbe, 
  0xd2, 0xaa, 0xaa, 0x3e, 0xb0, 0x3d, 0x4d, 0xbf, 0x76, 0x32, 0x90, 0xbe, 
  0x96, 0xfe, 0xff, 0xff, 0x04, 0x00, 0x00, 0x00, 0x80, 0x00, 0x00, 0x00, 
  0x58, 0xde, 0x28, 0xc1, 0xdd, 0xa2, 0xed, 0xc0, 0xbd, 0x1b, 0x57, 0xbf, 
  0x52, 0x64, 0x4d, 0xc0, 0xc1, 0xf3, 0xcc, 0xc0, 0xed, 0xba, 0x85, 0xc0, 
  0xd4, 0xb5, 0x24, 0xc0, 0xf9, 0x99, 0xc8, 0xc0, 0xdc, 0xfe, 0x1b, 0xc1, 
  0x06, 0xc0, 0x99, 0xc0, 0x09, 0x8a, 0x0f, 0xbf, 0xd0, 0x1d, 0x2f, 0xc0, 
  0xc2, 0x47, 0xd2, 0xc0, 0x18, 0x8e, 0xb4, 0xc0, 0x09, 0x27, 0x54, 0xc0, 
  0x82, 0xdc, 0x01, 0xc1, 0xb9, 0x2a, 0x28, 0xc1, 0x64, 0x67, 0x92, 0xc0, 
  0xa7, 0x20, 0x67, 0xbf, 0x0e, 0xed, 0x90, 0xc0, 0x68, 0x61, 0xbf, 0xc0, 
  0x56, 0xce, 0x85, 0xc0, 0x3f, 0x51, 0xb8, 0xc0, 0x99, 0x94, 0xf4, 0xc0, 
  0x9a, 0xe7, 0x17, 0xc1, 0xeb, 0xa8, 0xc4, 0xc0, 0x15, 0x02, 0xf1, 0x3e, 
  0x35, 0xff, 0x45, 0xc0, 0xe1, 0x25, 0x01, 0xc1, 0xa6, 0x8f, 0x77, 0xc0, 
  0x03, 0xc4, 0x8b, 0xc0, 0x4c, 0x92, 0xd6, 0xc0, 0x22, 0xff, 0xff, 0xff, 
  0x04, 0x00, 0x00, 0x00, 0x10, 0x00, 0x00, 0x00, 0x34, 0x84, 0x59, 0xbf, 
  0x7d, 0x97, 0x70, 0x3f, 0xbc, 0x5a, 0xde, 0xbf, 0x07, 0xd1, 0xd2, 0x3f, 
  0x3e, 0xff, 0xff, 0xff, 0x04, 0x00, 0x00, 0x00, 0x20, 0x00, 0x00, 0x00, 
  0x86, 0x70, 0xa2, 0x3f, 0x64, 0x3a, 0x54, 0x3f, 0x43, 0xac, 0xae, 0x3e, 
  0x20, 0x7c, 0x3a, 0x3f, 0x80, 0x99, 0x9f, 0x3f, 0x46, 0x94, 0x50, 0x3f, 
  0x40, 0xf9, 0x87, 0x3e, 0x1d, 0xca, 0x3a, 0x3f, 0x00, 0xfa, 0xff, 0xff, 
  0x04, 0xfa, 0xff, 0xff, 0x0f, 0x00, 0x00, 0x00, 0x4d, 0x4c, 0x49, 0x52, 
  0x20, 0x43, 0x6f, 0x6e, 0x76, 0x65, 0x72, 0x74, 0x65, 0x64, 0x2e, 0x00, 
  0x01, 0x00, 0x00, 0x00, 0x14, 0x00, 0x00, 0x00, 0x00, 0x00, 0x0e, 0x00, 
  0x18, 0x00, 0x14, 0x00, 0x10, 0x00, 0x0c, 0x00, 0x08, 0x00, 0x04, 0x00, 
  0x0e, 0x00, 0x00, 0x00, 0x14, 0x00, 0x00, 0x00, 0x1c, 0x00, 0x00, 0x00, 
  0x34, 0x01, 0x00, 0x00, 0x38, 0x01, 0x00, 0x00, 0x3c, 0x01, 0x00, 0x00, 
  0x04, 0x00, 0x00, 0x00, 0x6d, 0x61, 0x69, 0x6e, 0x00, 0x00, 0x00, 0x00, 
  0x04, 0x00, 0x00, 0x00, 0xdc, 0x00, 0x00, 0x00, 0x94, 0x00, 0x00, 0x00, 
  0x50, 0x00, 0x00, 0x00, 0x14, 0x00, 0x00, 0x00, 0x00, 0x00, 0x0e, 0x00, 
  0x1a, 0x00, 0x14, 0x00, 0x10, 0x00, 0x0c, 0x00, 0x0b, 0x00, 0x04, 0x00, 
  0x0e, 0x00, 0x00, 0x00, 0x1c, 0x00, 0x00, 0x00, 0x00, 0x00, 0x00, 0x09, 
  0x1c, 0x00, 0x00, 0x00, 0x20, 0x00, 0x00, 0x00, 0x01, 0x00, 0x00, 0x00, 
  0x00, 0x00, 0x06, 0x00, 0x08, 0x00, 0x04, 0x00, 0x06, 0x00, 0x00, 0x00, 
  0x00, 0x00, 0x80, 0x3f, 0x01, 0x00, 0x00, 0x00, 0x0a, 0x00, 0x00, 0x00, 
  0x01, 0x00, 0x00, 0x00, 0x09, 0x00, 0x00, 0x00, 0xce, 0xff, 0xff, 0xff, 
  0x10, 0x00, 0x00, 0x00, 0x00, 0x00, 0x00, 0x08, 0x0c, 0x00, 0x00, 0x00, 
  0x10, 0x00, 0x00, 0x00, 0xc8, 0xfa, 0xff, 0xff, 0x01, 0x00, 0x00, 0x00, 
  0x09, 0x00, 0x00, 0x00, 0x03, 0x00, 0x00, 0x00, 0x08, 0x00, 0x00, 0x00, 
  0x03, 0x00, 0x00, 0x00, 0x02, 0x00, 0x00, 0x00, 0x00, 0x00, 0x0e, 0x00, 
  0x14, 0x00, 0x00, 0x00, 0x10, 0x00, 0x0c, 0x00, 0x0b, 0x00, 0x04, 0x00, 
  0x0e, 0x00, 0x00, 0x00, 0x10, 0x00, 0x00, 0x00, 0x00, 0x00, 0x00, 0x08, 
  0x10, 0x00, 0x00, 0x00, 0x14, 0x00, 0x00, 0x00, 0xba, 0xff, 0xff, 0xff, 
  0x00, 0x00, 0x00, 0x01, 0x01, 0x00, 0x00, 0x00, 0x08, 0x00, 0x00, 0x00, 
  0x03, 0x00, 0x00, 0x00, 0x07, 0x00, 0x00, 0x00, 0x04, 0x00, 0x00, 0x00, 
  0x01, 0x00, 0x00, 0x00, 0x00, 0x00, 0x0e, 0x00, 0x16, 0x00, 0x00, 0x00, 
  0x10, 0x00, 0x0c, 0x00, 0x0b, 0x00, 0x04, 0x00, 0x0e, 0x00, 0x00, 0x00, 
  0x18, 0x00, 0x00, 0x00, 0x00, 0x00, 0x00, 0x08, 0x18, 0x00, 0x00, 0x00, 
  0x1c, 0x00, 0x00, 0x00, 0x00, 0x00, 0x06, 0x00, 0x08, 0x00, 0x07, 0x00, 
  0x06, 0x00, 0x00, 0x00, 0x00, 0x00, 0x00, 0x01, 0x01, 0x00, 0x00, 0x00, 
  0x07, 0x00, 0x00, 0x00, 0x03, 0x00, 0x00, 0x00, 0x00, 0x00, 0x00, 0x00, 
  0x05, 0x00, 0x00, 0x00, 0x06, 0x00, 0x00, 0x00, 0x01, 0x00, 0x00, 0x00, 
  0x0a, 0x00, 0x00, 0x00, 0x01, 0x00, 0x00, 0x00, 0x00, 0x00, 0x00, 0x00, 
  0x0b, 0x00, 0x00, 0x00, 0x50, 0x04, 0x00, 0x00, 0xd0, 0x03, 0x00, 0x00, 
  0x6c, 0x03, 0x00, 0x00, 0x1c, 0x03, 0x00, 0x00, 0xcc, 0x02, 0x00, 0x00, 
  0x7c, 0x02, 0x00, 0x00, 0x14, 0x02, 0x00, 0x00, 0x78, 0x01, 0x00, 0x00, 
  0xdc, 0x00, 0x00, 0x00, 0x60, 0x00, 0x00, 0x00, 0x04, 0x00, 0x00, 0x00, 
  0xf2, 0xfb, 0xff, 0xff, 0x00, 0x00, 0x00, 0x01, 0x14, 0x00, 0x00, 0x00, 
  0x1c, 0x00, 0x00, 0x00, 0x1c, 0x00, 0x00, 0x00, 0x0b, 0x00, 0x00, 0x00, 
  0x34, 0x00, 0x00, 0x00, 0x02, 0x00, 0x00, 0x00, 0xff, 0xff, 0xff, 0xff, 
  0x04, 0x00, 0x00, 0x00, 0xdc, 0xfb, 0xff, 0xff, 0x1b, 0x00, 0x00, 0x00, 
  0x53, 0x74, 0x61, 0x74, 0x65, 0x66, 0x75, 0x6c, 0x50, 0x61, 0x72, 0x74, 
  0x69, 0x74, 0x69, 0x6f, 0x6e, 0x65, 0x64, 0x43, 0x61, 0x6c, 0x6c, 0x5f, 
  0x31, 0x3a, 0x30, 0x00, 0x02, 0x00, 0x00, 0x00, 0x01, 0x00, 0x00, 0x00, 
  0x04, 0x00, 0x00, 0x00, 0x4a, 0xfc, 0xff, 0xff, 0x00, 0x00, 0x00, 0x01, 
  0x14, 0x00, 0x00, 0x00, 0x1c, 0x00, 0x00, 0x00, 0x1c, 0x00, 0x00, 0x00, 
  0x0a, 0x00, 0x00, 0x00, 0x54, 0x00, 0x00, 0x00, 0x02, 0x00, 0x00, 0x00, 
  0xff, 0xff, 0xff, 0xff, 0x04, 0x00, 0x00, 0x00, 0x34, 0xfc, 0xff, 0xff, 
  0x3a, 0x00, 0x00, 0x00, 0x73, 0x65, 0x71, 0x75, 0x65, 0x6e, 0x74, 0x69, 
  0x61, 0x6c, 0x5f, 0x31, 0x2f, 0x6f, 0x75, 0x74, 0x70, 0x75, 0x74, 0x5f, 
  0x31, 0x2f, 0x4d, 0x61, 0x74, 0x4d, 0x75, 0x6c, 0x3b, 0x73, 0x65, 0x71, 
  0x75, 0x65, 0x6e, 0x74, 0x69, 0x61, 0x6c, 0x5f, 0x31, 0x2f, 0x6f, 0x75, 
  0x74, 0x70, 0x75, 0x74, 0x5f, 0x31, 0x2f, 0x42, 0x69, 0x61, 0x73, 0x41, 
  0x64, 0x64, 0x00, 0x00, 0x02, 0x00, 0x00, 0x00, 0x01, 0x00, 0x00, 0x00, 
  0x04, 0x00, 0x00, 0x00, 0xc2, 0xfc, 0xff, 0xff, 0x00, 0x00, 0x00, 0x01, 
  0x14, 0x00, 0x00, 0x00, 0x1c, 0x00, 0x00, 0x00, 0x1c, 0x00, 0x00, 0x00, 
  0x09, 0x00, 0x00, 0x00, 0x74, 0x00, 0x00, 0x00, 0x02, 0x00, 0x00, 0x00, 
  0xff, 0xff, 0xff, 0xff, 0x08, 0x00, 0x00, 0x00, 0xac, 0xfc, 0xff, 0xff, 
  0x58, 0x00, 0x00, 0x00, 0x73, 0x65, 0x71, 0x75, 0x65, 0x6e, 0x74, 0x69, 
  0x61, 0x6c, 0x5f, 0x31, 0x2f, 0x68, 0x69, 0x64, 0x64, 0x65, 0x6e, 0x32, 
  0x5f, 0x31, 0x2f, 0x4d, 0x61, 0x74, 0x4d, 0x75, 0x6c, 0x3b, 0x73, 0x65, 
  0x71, 0x75, 0x65, 0x6e, 0x74, 0x69, 0x61, 0x6c, 0x5f, 0x31, 0x2f, 0x68, 
  0x69, 0x64, 0x64, 0x65, 0x6e, 0x32, 0x5f, 0x31, 0x2f, 0x52, 0x65, 0x6c, 
  0x75, 0x3b, 0x73, 0x65, 0x71, 0x75, 0x65, 0x6e, 0x74, 0x69, 0x61, 0x6c, 
  0x5f, 0x31, 0x2f, 0x68, 0x69, 0x64, 0x64, 0x65, 0x6e, 0x32, 0x5f, 0x31, 
  0x2f, 0x42, 0x69, 0x61, 0x73, 0x41, 0x64, 0x64, 0x00, 0x00, 0x00, 0x00, 
  0x02, 0x00, 0x00, 0x00, 0x01, 0x00, 0x00, 0x00, 0x08, 0x00, 0x00, 0x00, 
  0x5a, 0xfd, 0xff, 0xff, 0x00, 0x00, 0x00, 0x01, 0x14, 0x00, 0x00, 0x00, 
  0x1c, 0x00, 0x00, 0x00, 0x1c, 0x00, 0x00, 0x00, 0x08, 0x00, 0x00, 0x00, 
  0x74, 0x00, 0x00, 0x00, 0x02, 0x00, 0x00, 0x00, 0xff, 0xff, 0xff, 0xff, 
  0x10, 0x00, 0x00, 0x00, 0x44, 0xfd, 0xff, 0xff, 0x58, 0x00, 0x00, 0x00, 
  0x73, 0x65, 0x71, 0x75, 0x65, 0x6e, 0x74, 0x69, 0x61, 0x6c, 0x5f, 0x31, 
  0x2f, 0x68, 0x69, 0x64, 0x64, 0x65, 0x6e, 0x31, 0x5f, 0x31, 0x2f, 0x4d, 
  0x61, 0x74, 0x4d, 0x75, 0x6c, 0x3b, 0x73, 0x65, 0x71, 0x75, 0x65, 0x6e, 
  0x74, 0x69, 0x61, 0x6c, 0x5f, 0x31, 0x2f, 0x68, 0x69, 0x64, 0x64, 0x65, 
  0x6e, 0x31, 0x5f, 0x31, 0x2f, 0x52, 0x65, 0x6c, 0x75, 0x3b, 0x73, 0x65, 
  0x71, 0x75, 0x65, 0x6e, 0x74, 0x69, 0x61, 0x6c, 0x5f, 0x31, 0x2f, 0x68, 
  0x69, 0x64, 0x64, 0x65, 0x6e, 0x31, 0x5f, 0x31, 0x2f, 0x42, 0x69, 0x61, 
  0x73, 0x41, 0x64, 0x64, 0x00, 0x00, 0x00, 0x00, 0x02, 0x00, 0x00, 0x00, 
  0x01, 0x00, 0x00, 0x00, 0x10, 0x00, 0x00, 0x00, 0x6e, 0xfe, 0xff, 0xff, 
  0x00, 0x00, 0x00, 0x01, 0x10, 0x00, 0x00, 0x00, 0x10, 0x00, 0x00, 0x00, 
  0x07, 0x00, 0x00, 0x00, 0x48, 0x00, 0x00, 0x00, 0xcc, 0xfd, 0xff, 0xff, 
  0x3a, 0x00, 0x00, 0x00, 0x73, 0x65, 0x71, 0x75, 0x65, 0x6e, 0x74, 0x69, 
  0x61, 0x6c, 0x5f, 0x31, 0x2f, 0x68, 0x69, 0x64, 0x64, 0x65, 0x6e, 0x31, 
  0x5f, 0x31, 0x2f, 0x52, 0x65, 0x6c, 0x75, 0x3b, 0x73, 0x65, 0x71, 0x75, 
  0x65, 0x6e, 0x74, 0x69, 0x61, 0x6c, 0x5f, 0x31, 0x2f, 0x68, 0x69, 0x64, 
  0x64, 0x65, 0x6e, 0x31, 0x5f, 0x31, 0x2f, 0x42, 0x69, 0x61, 0x73, 0x41, 
  0x64, 0x64, 0x00, 0x00, 0x01, 0x00, 0x00, 0x00, 0x10, 0x00, 0x00, 0x00, 
  0xd2, 0xfe, 0xff, 0xff, 0x00, 0x00, 0x00, 0x01, 0x10, 0x00, 0x00, 0x00, 
  0x10, 0x00, 0x00, 0x00, 0x06, 0x00, 0x00, 0x00, 0x2c, 0x00, 0x00, 0x00, 
  0x30, 0xfe, 0xff, 0xff, 0x1d, 0x00, 0x00, 0x00, 0x73, 0x65, 0x71, 0x75, 
  0x65, 0x6e, 0x74, 0x69, 0x61, 0x6c, 0x5f, 0x31, 0x2f, 0x68, 0x69, 0x64, 
  0x64, 0x65, 0x6e, 0x31, 0x5f, 0x31, 0x2f, 0x4d, 0x61, 0x74, 0x4d, 0x75, 
  0x6c, 0x00, 0x00, 0x00, 0x02, 0x00, 0x00, 0x00, 0x10, 0x00, 0x00, 0x00, 
  0x09, 0x00, 0x00, 0x00, 0x1e, 0xff, 0xff, 0xff, 0x00, 0x00, 0x00, 0x01, 
  0x10, 0x00, 0x00, 0x00, 0x10, 0x00, 0x00, 0x00, 0x05, 0x00, 0x00, 0x00, 
  0x2c, 0x00, 0x00, 0x00, 0x7c, 0xfe, 0xff, 0xff, 0x1d, 0x00, 0x00, 0x00, 
  0x73, 0x65, 0x71, 0x75, 0x65, 0x6e, 0x74, 0x69, 0x61, 0x6c, 0x5f, 0x31, 
  0x2f, 0x68, 0x69, 0x64, 0x64, 0x65, 0x6e, 0x32, 0x5f, 0x31, 0x2f, 0x4d, 
  0x61, 0x74, 0x4d, 0x75, 0x6c, 0x00, 0x00, 0x00, 0x02, 0x00, 0x00, 0x00, 
  0x08, 0x00, 0x00, 0x00, 0x10, 0x00, 0x00, 0x00, 0x6a, 0xff, 0xff, 0xff, 
  0x00, 0x00, 0x00, 0x01, 0x10, 0x00, 0x00, 0x00, 0x10, 0x00, 0x00, 0x00, 
  0x04, 0x00, 0x00, 0x00, 0x2c, 0x00, 0x00, 0x00, 0xc8, 0xfe, 0xff, 0xff, 
  0x1c, 0x00, 0x00, 0x00, 0x73, 0x65, 0x71, 0x75, 0x65, 0x6e, 0x74, 0x69, 
  0x61, 0x6c, 0x5f, 0x31, 0x2f, 0x6f, 0x75, 0x74, 0x70, 0x75, 0x74, 0x5f, 
  0x31, 0x2f, 0x4d, 0x61, 0x74, 0x4d, 0x75, 0x6c, 0x00, 0x00, 0x00, 0x00, 
  0x02, 0x00, 0x00, 0x00, 0x04, 0x00, 0x00, 0x00, 0x08, 0x00, 0x00, 0x00, 
  0xb6, 0xff, 0xff, 0xff, 0x00, 0x00, 0x00, 0x01, 0x10, 0x00, 0x00, 0x00, 
  0x10, 0x00, 0x00, 0x00, 0x03, 0x00, 0x00, 0x00, 0x2c, 0x00, 0x00, 0x00, 
  0x14, 0xff, 0xff, 0xff, 0x1d, 0x00, 0x00, 0x00, 0x73, 0x65, 0x71, 0x75, 
  0x65, 0x6e, 0x74, 0x69, 0x61, 0x6c, 0x5f, 0x31, 0x2f, 0x6f, 0x75, 0x74, 
  0x70, 0x75, 0x74, 0x5f, 0x31, 0x2f, 0x42, 0x69, 0x61, 0x73, 0x41, 0x64, 
  0x64, 0x00, 0x00, 0x00, 0x01, 0x00, 0x00, 0x00, 0x04, 0x00, 0x00, 0x00, 
  0x00, 0x00, 0x16, 0x00, 0x18, 0x00, 0x14, 0x00, 0x00, 0x00, 0x10, 0x00, 
  0x0c, 0x00, 0x08, 0x00, 0x00, 0x00, 0x00, 0x00, 0x00, 0x00, 0x07, 0x00, 
  0x16, 0x00, 0x00, 0x00, 0x00, 0x00, 0x00, 0x01, 0x10, 0x00, 0x00, 0x00, 
  0x10, 0x00, 0x00, 0x00, 0x02, 0x00, 0x00, 0x00, 0x48, 0x00, 0x00, 0x00, 
  0x74, 0xff, 0xff, 0xff, 0x3a, 0x00, 0x00, 0x00, 0x73, 0x65, 0x71, 0x75, 
  0x65, 0x6e, 0x74, 0x69, 0x61, 0x6c, 0x5f, 0x31, 0x2f, 0x68, 0x69, 0x64, 
  0x64, 0x65, 0x6e, 0x32, 0x5f, 0x31, 0x2f, 0x52, 0x65, 0x6c, 0x75, 0x3b, 
  0x73, 0x65, 0x71, 0x75, 0x65, 0x6e, 0x74, 0x69, 0x61, 0x6c, 0x5f, 0x31, 
  0x2f, 0x68, 0x69, 0x64, 0x64, 0x65, 0x6e, 0x32, 0x5f, 0x31, 0x2f, 0x42, 
  0x69, 0x61, 0x73, 0x41, 0x64, 0x64, 0x00, 0x00, 0x01, 0x00, 0x00, 0x00, 
  0x08, 0x00, 0x00, 0x00, 0x00, 0x00, 0x16, 0x00, 0x1c, 0x00, 0x18, 0x00, 
  0x00, 0x00, 0x14, 0x00, 0x10, 0x00, 0x0c, 0x00, 0x00, 0x00, 0x00, 0x00, 
  0x08, 0x00, 0x07, 0x00, 0x16, 0x00, 0x00, 0x00, 0x00, 0x00, 0x00, 0x01, 
  0x14, 0x00, 0x00, 0x00, 0x20, 0x00, 0x00, 0x00, 0x20, 0x00, 0x00, 0x00, 
  0x01, 0x00, 0x00, 0x00, 0x3c, 0x00, 0x00, 0x00, 0x02, 0x00, 0x00, 0x00, 
  0xff, 0xff, 0xff, 0xff, 0x09, 0x00, 0x00, 0x00, 0x04, 0x00, 0x04, 0x00, 
  0x04, 0x00, 0x00, 0x00, 0x1e, 0x00, 0x00, 0x00, 0x73, 0x65, 0x72, 0x76, 
  0x69, 0x6e, 0x67, 0x5f, 0x64, 0x65, 0x66, 0x61, 0x75, 0x6c, 0x74, 0x5f, 
  0x6b, 0x65, 0x72, 0x61, 0x73, 0x5f, 0x74, 0x65, 0x6e, 0x73, 0x6f, 0x72, 
  0x3a, 0x30, 0x00, 0x00, 0x02, 0x00, 0x00, 0x00, 0x01, 0x00, 0x00, 0x00, 
  0x09, 0x00, 0x00, 0x00, 0x02, 0x00, 0x00, 0x00, 0x20, 0x00, 0x00, 0x00, 
  0x04, 0x00, 0x00, 0x00, 0xf4, 0xff, 0xff, 0xff, 0x19, 0x00, 0x00, 0x00, 
  0x00, 0x00, 0x00, 0x19, 0x0c, 0x00, 0x0c, 0x00, 0x0b, 0x00, 0x00, 0x00, 
  0x00, 0x00, 0x04, 0x00, 0x0c, 0x00, 0x00, 0x00, 0x09, 0x00, 0x00, 0x00, 
  0x00, 0x00, 0x00, 0x09
};

#endif  // MODEL_DATA_H
